#ifndef SLEEPDETEC_H
#define SLEEPDETEC_H


unsigned int sleepDetec_len = 5856;
unsigned char sleepDetec[] = {
 0x1c, 0x00, 0x00, 0x00, 0x54, 0x46, 0x4c, 0x33, 0x14, 0x00, 0x20, 0x00,
  0x1c, 0x00, 0x18, 0x00, 0x14, 0x00, 0x10, 0x00, 0x0c, 0x00, 0x00, 0x00,
  0x08, 0x00, 0x04, 0x00, 0x14, 0x00, 0x00, 0x00, 0x1c, 0x00, 0x00, 0x00,
  0x8c, 0x00, 0x00, 0x00, 0xe4, 0x00, 0x00, 0x00, 0xb0, 0x0e, 0x00, 0x00,
  0xc0, 0x0e, 0x00, 0x00, 0x6c, 0x16, 0x00, 0x00, 0x03, 0x00, 0x00, 0x00,
  0x01, 0x00, 0x00, 0x00, 0x04, 0x00, 0x00, 0x00, 0xfe, 0xf0, 0xff, 0xff,
  0x0c, 0x00, 0x00, 0x00, 0x1c, 0x00, 0x00, 0x00, 0x3c, 0x00, 0x00, 0x00,
  0x0f, 0x00, 0x00, 0x00, 0x73, 0x65, 0x72, 0x76, 0x69, 0x6e, 0x67, 0x5f,
  0x64, 0x65, 0x66, 0x61, 0x75, 0x6c, 0x74, 0x00, 0x01, 0x00, 0x00, 0x00,
  0x04, 0x00, 0x00, 0x00, 0x90, 0xff, 0xff, 0xff, 0x0d, 0x00, 0x00, 0x00,
  0x04, 0x00, 0x00, 0x00, 0x08, 0x00, 0x00, 0x00, 0x64, 0x65, 0x6e, 0x73,
  0x65, 0x5f, 0x33, 0x35, 0x00, 0x00, 0x00, 0x00, 0x01, 0x00, 0x00, 0x00,
  0x04, 0x00, 0x00, 0x00, 0xf2, 0xf1, 0xff, 0xff, 0x04, 0x00, 0x00, 0x00,
  0x0e, 0x00, 0x00, 0x00, 0x64, 0x65, 0x6e, 0x73, 0x65, 0x5f, 0x33, 0x32,
  0x5f, 0x69, 0x6e, 0x70, 0x75, 0x74, 0x00, 0x00, 0x02, 0x00, 0x00, 0x00,
  0x34, 0x00, 0x00, 0x00, 0x04, 0x00, 0x00, 0x00, 0xdc, 0xff, 0xff, 0xff,
  0x10, 0x00, 0x00, 0x00, 0x04, 0x00, 0x00, 0x00, 0x13, 0x00, 0x00, 0x00,
  0x43, 0x4f, 0x4e, 0x56, 0x45, 0x52, 0x53, 0x49, 0x4f, 0x4e, 0x5f, 0x4d,
  0x45, 0x54, 0x41, 0x44, 0x41, 0x54, 0x41, 0x00, 0x08, 0x00, 0x0c, 0x00,
  0x08, 0x00, 0x04, 0x00, 0x08, 0x00, 0x00, 0x00, 0x0f, 0x00, 0x00, 0x00,
  0x04, 0x00, 0x00, 0x00, 0x13, 0x00, 0x00, 0x00, 0x6d, 0x69, 0x6e, 0x5f,
  0x72, 0x75, 0x6e, 0x74, 0x69, 0x6d, 0x65, 0x5f, 0x76, 0x65, 0x72, 0x73,
  0x69, 0x6f, 0x6e, 0x00, 0x11, 0x00, 0x00, 0x00, 0xc8, 0x0d, 0x00, 0x00,
  0xc0, 0x0d, 0x00, 0x00, 0x90, 0x0d, 0x00, 0x00, 0x78, 0x0b, 0x00, 0x00,
  0x68, 0x06, 0x00, 0x00, 0x54, 0x06, 0x00, 0x00, 0x24, 0x06, 0x00, 0x00,
  0xd4, 0x05, 0x00, 0x00, 0x74, 0x05, 0x00, 0x00, 0xb4, 0x00, 0x00, 0x00,
  0xac, 0x00, 0x00, 0x00, 0xa4, 0x00, 0x00, 0x00, 0x9c, 0x00, 0x00, 0x00,
  0x94, 0x00, 0x00, 0x00, 0x8c, 0x00, 0x00, 0x00, 0x6c, 0x00, 0x00, 0x00,
  0x04, 0x00, 0x00, 0x00, 0xb2, 0xf2, 0xff, 0xff, 0x04, 0x00, 0x00, 0x00,
  0x58, 0x00, 0x00, 0x00, 0x0c, 0x00, 0x00, 0x00, 0x08, 0x00, 0x0e, 0x00,
  0x08, 0x00, 0x04, 0x00, 0x08, 0x00, 0x00, 0x00, 0x10, 0x00, 0x00, 0x00,
  0x28, 0x00, 0x00, 0x00, 0x00, 0x00, 0x06, 0x00, 0x08, 0x00, 0x04, 0x00,
  0x06, 0x00, 0x00, 0x00, 0x04, 0x00, 0x00, 0x00, 0x01, 0x00, 0x00, 0x00,
  0xea, 0x03, 0x00, 0x00, 0x00, 0x00, 0x0a, 0x00, 0x10, 0x00, 0x0c, 0x00,
  0x08, 0x00, 0x04, 0x00, 0x0a, 0x00, 0x00, 0x00, 0x02, 0x00, 0x00, 0x00,
  0x02, 0x00, 0x00, 0x00, 0x04, 0x00, 0x00, 0x00, 0x06, 0x00, 0x00, 0x00,
  0x32, 0x2e, 0x31, 0x34, 0x2e, 0x30, 0x00, 0x00, 0x16, 0xf3, 0xff, 0xff,
  0x04, 0x00, 0x00, 0x00, 0x10, 0x00, 0x00, 0x00, 0x32, 0x2e, 0x33, 0x2e,
  0x30, 0x00, 0x00, 0x00, 0x00, 0x00, 0x00, 0x00, 0x00, 0x00, 0x00, 0x00,
  0x70, 0xeb, 0xff, 0xff, 0x74, 0xeb, 0xff, 0xff, 0x78, 0xeb, 0xff, 0xff,
  0x7c, 0xeb, 0xff, 0xff, 0x80, 0xeb, 0xff, 0xff, 0x46, 0xf3, 0xff, 0xff,
  0x04, 0x00, 0x00, 0x00, 0xb0, 0x04, 0x00, 0x00, 0xfa, 0x03, 0xfc, 0xff,
  0xff, 0x01, 0x01, 0x01, 0x01, 0xfe, 0x02, 0xff, 0x02, 0x01, 0x04, 0x04,
  0x05, 0x00, 0x06, 0xfe, 0x03, 0xff, 0x04, 0x01, 0x06, 0xfe, 0x07, 0xfc,
  0x04, 0x00, 0x03, 0x03, 0x01, 0x02, 0x00, 0x01, 0x01, 0xff, 0x05, 0x02,
  0xff, 0x03, 0x01, 0x02, 0x03, 0x00, 0x07, 0x00, 0x03, 0xfd, 0x01, 0xf9,
  0x04, 0xf9, 0x04, 0xfb, 0x04, 0xfd, 0x04, 0xfb, 0xfc, 0xfe, 0xfd, 0x04,
  0xfe, 0x02, 0xfe, 0xfd, 0x00, 0x01, 0xff, 0x01, 0xff, 0xff, 0xfe, 0xfd,
  0xfe, 0x01, 0xfe, 0x02, 0xff, 0x01, 0xfd, 0x00, 0xfe, 0x06, 0xec, 0x03,
  0xf8, 0x01, 0xba, 0x01, 0xa8, 0x01, 0xfc, 0x03, 0xfb, 0x02, 0x00, 0x02,
  0xdf, 0xfe, 0xff, 0x01, 0xca, 0x01, 0xa2, 0x01, 0xcb, 0xfe, 0xfa, 0x00,
  0xe4, 0x01, 0xef, 0xff, 0xfa, 0x02, 0xf6, 0xfb, 0x10, 0x02, 0x0c, 0xff,
  0x09, 0x01, 0x05, 0xff, 0x05, 0x01, 0x04, 0xff, 0x03, 0x03, 0x02, 0x02,
  0x07, 0xff, 0x04, 0xfe, 0x04, 0x00, 0x05, 0x02, 0x09, 0xfe, 0x09, 0xfd,
  0x09, 0x00, 0x05, 0x01, 0x03, 0x02, 0x05, 0x00, 0x07, 0x00, 0x04, 0x03,
  0x06, 0x00, 0x03, 0xfe, 0x01, 0x00, 0x03, 0x01, 0x05, 0x02, 0x04, 0x00,
  0x02, 0x02, 0x04, 0x00, 0x06, 0x01, 0x04, 0xfe, 0x07, 0x03, 0x06, 0xfe,
  0x06, 0xff, 0x03, 0x01, 0x04, 0x00, 0x04, 0xfe, 0x05, 0x01, 0x03, 0x07,
  0x05, 0x04, 0x05, 0xfa, 0x03, 0xfb, 0x01, 0x03, 0x01, 0x01, 0x03, 0xfd,
  0x01, 0xff, 0x01, 0x05, 0x02, 0x04, 0xff, 0xff, 0xfd, 0x01, 0x00, 0xfe,
  0xfa, 0xfe, 0x01, 0x02, 0x00, 0x01, 0x05, 0x01, 0x05, 0x01, 0x06, 0x00,
  0x09, 0x00, 0x0b, 0xff, 0x08, 0x03, 0x0a, 0x01, 0x08, 0x01, 0x05, 0x03,
  0x03, 0x00, 0xfc, 0xfc, 0x01, 0x00, 0x01, 0x08, 0xff, 0x04, 0xfc, 0xfa,
  0xff, 0x04, 0x00, 0x0a, 0x01, 0x00, 0xfd, 0xf8, 0xfb, 0xfc, 0x02, 0x05,
  0x01, 0x01, 0xff, 0xfb, 0xfe, 0x00, 0x02, 0x01, 0x02, 0x02, 0xff, 0xff,
  0xff, 0xfd, 0x00, 0x02, 0x00, 0x03, 0x00, 0x01, 0x01, 0x00, 0x01, 0xff,
  0x00, 0x03, 0x02, 0xfc, 0x03, 0xfc, 0xff, 0xff, 0xa5, 0x02, 0xae, 0xfe,
  0xba, 0xfc, 0xca, 0x04, 0xac, 0x01, 0xd5, 0xfd, 0xef, 0xfb, 0xf6, 0x00,
  0xfc, 0x00, 0xfb, 0x01, 0xfa, 0xfd, 0xfd, 0x01, 0xfd, 0x00, 0xfe, 0x03,
  0xfd, 0xff, 0xfc, 0xfe, 0xff, 0xff, 0xfb, 0x03, 0xfe, 0xff, 0xff, 0xfc,
  0xfd, 0xfe, 0x01, 0x03, 0xfd, 0x01, 0x00, 0xff, 0xff, 0x00, 0xfc, 0x03,
  0xfb, 0x05, 0xfa, 0x02, 0xfc, 0x02, 0xfc, 0x03, 0x81, 0xee, 0xcd, 0xfa,
  0xfc, 0xfd, 0xfe, 0xfb, 0x02, 0xfb, 0x02, 0xf7, 0x01, 0xfd, 0x03, 0xff,
  0x04, 0xfb, 0x04, 0xfd, 0x04, 0x02, 0x03, 0xfe, 0x03, 0xfe, 0x01, 0xfe,
  0x02, 0x02, 0x00, 0xff, 0x00, 0x00, 0x02, 0xff, 0x01, 0x03, 0x00, 0x00,
  0x00, 0x02, 0x00, 0x02, 0x00, 0x01, 0xff, 0x00, 0x02, 0x01, 0x02, 0x01,
  0x01, 0xff, 0x04, 0x01, 0x01, 0x03, 0xeb, 0x04, 0x00, 0x01, 0xfe, 0xff,
  0xfc, 0x00, 0xe1, 0x01, 0xc4, 0x03, 0xc4, 0xfd, 0xd6, 0xff, 0xdc, 0x05,
  0xff, 0x02, 0xff, 0xfb, 0x00, 0xfc, 0xff, 0x05, 0xff, 0x03, 0x03, 0xfd,
  0x02, 0xfb, 0x01, 0x02, 0x00, 0x02, 0x00, 0xff, 0x01, 0x00, 0xfb, 0x01,
  0xd7, 0x02, 0xb9, 0x02, 0xd0, 0xff, 0xfb, 0x01, 0xfa, 0x02, 0xc2, 0xff,
  0xcc, 0x03, 0xc2, 0xfd, 0xfd, 0x01, 0xf9, 0xf9, 0x02, 0xfe, 0xfe, 0x02,
  0x03, 0xff, 0xff, 0x02, 0xfd, 0xfc, 0x02, 0x00, 0xfb, 0xff, 0xfc, 0xfd,
  0xfd, 0xfc, 0xff, 0xfe, 0xfe, 0x03, 0x03, 0x03, 0xfb, 0xfd, 0xf8, 0x01,
  0xfb, 0x04, 0xfa, 0x05, 0xff, 0xfd, 0x00, 0x02, 0x03, 0x07, 0x01, 0x03,
  0xff, 0xfd, 0xfd, 0x01, 0xfc, 0x04, 0xfb, 0x01, 0x00, 0xfc, 0xff, 0x02,
  0x06, 0x02, 0x07, 0xff, 0x06, 0xfe, 0x08, 0x06, 0x9b, 0xfd, 0x98, 0x04,
  0x9b, 0x00, 0x90, 0xfd, 0xa7, 0x01, 0xa1, 0x01, 0x9a, 0x00, 0x88, 0xfa,
  0x99, 0x03, 0xd9, 0x02, 0xfe, 0xfc, 0xfa, 0xfe, 0xfe, 0x03, 0xff, 0xff,
  0x00, 0xfe, 0x00, 0xfd, 0x00, 0xff, 0x00, 0xff, 0x01, 0xfe, 0x01, 0x03,
  0x01, 0xfc, 0x01, 0x00, 0x00, 0x00, 0x01, 0x02, 0x01, 0xfd, 0x02, 0x00,
  0x00, 0x01, 0x01, 0xfd, 0x00, 0x00, 0x01, 0x02, 0xff, 0x03, 0xff, 0x02,
  0xfb, 0x00, 0xfe, 0x01, 0xf9, 0x04, 0xf2, 0x01, 0xfc, 0x01, 0xf0, 0x02,
  0xed, 0x02, 0xec, 0x01, 0xd6, 0xfe, 0x9d, 0x03, 0xf0, 0xfe, 0xee, 0x00,
  0xf5, 0x03, 0xd9, 0xff, 0xc6, 0xfd, 0xca, 0x01, 0xe8, 0x03, 0xf0, 0x01,
  0xb0, 0xfc, 0xf3, 0xfe, 0xcf, 0x06, 0xf9, 0x00, 0xf6, 0xfc, 0xf6, 0xfe,
  0xfb, 0x02, 0xfe, 0x00, 0x01, 0x00, 0x00, 0x01, 0x03, 0x00, 0x01, 0x05,
  0x01, 0x02, 0x02, 0xff, 0x03, 0x01, 0x00, 0x00, 0x04, 0xff, 0x01, 0xfe,
  0xff, 0x03, 0xff, 0x02, 0xfd, 0xfe, 0xfe, 0x03, 0x02, 0x03, 0x04, 0x02,
  0x02, 0xfd, 0x05, 0x04, 0x05, 0x01, 0x04, 0xff, 0x01, 0xfe, 0x03, 0x03,
  0x03, 0x01, 0x03, 0x00, 0x08, 0x00, 0x09, 0x02, 0x00, 0x06, 0x01, 0x01,
  0x03, 0x01, 0x01, 0xff, 0xff, 0x03, 0x00, 0x02, 0x00, 0x06, 0x02, 0x03,
  0x03, 0x01, 0x03, 0x02, 0x03, 0x01, 0x01, 0x03, 0x06, 0xff, 0x03, 0xfd,
  0x01, 0xfd, 0x01, 0xff, 0x01, 0xfc, 0x00, 0xfe, 0x00, 0x02, 0xff, 0x03,
  0xff, 0x05, 0x00, 0xff, 0x03, 0x01, 0x01, 0x01, 0xff, 0xfd, 0x01, 0xfc,
  0x01, 0xfd, 0x02, 0xfe, 0x01, 0x00, 0xff, 0xfe, 0x06, 0x02, 0x08, 0x03,
  0x05, 0x01, 0x05, 0x03, 0x00, 0xff, 0x04, 0xfc, 0x01, 0x01, 0x01, 0x03,
  0x00, 0x04, 0x01, 0x03, 0x01, 0xfe, 0x00, 0xfa, 0xff, 0xfb, 0xff, 0xf9,
  0xfe, 0xfe, 0xff, 0x03, 0xff, 0x06, 0x00, 0x07, 0x00, 0x05, 0x00, 0x02,
  0x00, 0xfe, 0x00, 0xf6, 0x00, 0xfd, 0x00, 0xfb, 0xff, 0x01, 0x00, 0x03,
  0xff, 0x05, 0x00, 0x03, 0x00, 0x00, 0xff, 0x00, 0x00, 0xff, 0x00, 0xfd,
  0x00, 0xff, 0x00, 0xff, 0xff, 0x00, 0xff, 0x02, 0x03, 0xff, 0x03, 0x00,
  0x03, 0xfd, 0x03, 0x01, 0x03, 0x02, 0x03, 0xff, 0x02, 0xfd, 0x03, 0x00,
  0x02, 0x01, 0x02, 0x01, 0x00, 0xff, 0xfc, 0x00, 0xe7, 0x01, 0xc6, 0x04,
  0x9f, 0x00, 0x93, 0xfe, 0x9e, 0x00, 0xa3, 0xff, 0xab, 0xff, 0xa7, 0xfe,
  0xa4, 0xfe, 0xac, 0x00, 0xb0, 0xfc, 0xab, 0xff, 0xba, 0xfb, 0x9f, 0xfd,
  0xac, 0xff, 0xb7, 0xfa, 0xcc, 0xfc, 0xc9, 0xf6, 0xb5, 0x00, 0xd3, 0x01,
  0xcf, 0xff, 0xe5, 0xfe, 0xf1, 0x03, 0xe6, 0x01, 0xd4, 0xff, 0xbc, 0xff,
  0xb9, 0xff, 0xbb, 0x01, 0xd4, 0x02, 0xc0, 0xfe, 0xba, 0x00, 0xae, 0xff,
  0xca, 0x01, 0xda, 0x01, 0xf9, 0x01, 0xff, 0xfe, 0xe6, 0xfd, 0xd2, 0x02,
  0xe5, 0x06, 0xd1, 0xfd, 0xe8, 0xf9, 0xef, 0x01, 0x00, 0x09, 0x02, 0x00,
  0x01, 0xf7, 0x02, 0x01, 0x01, 0x06, 0x01, 0xff, 0x00, 0x02, 0x00, 0x01,
  0xfc, 0xff, 0x01, 0x01, 0xfd, 0x03, 0xfe, 0x01, 0xfe, 0xfe, 0xff, 0xfe,
  0xff, 0x03, 0x00, 0x04, 0x00, 0xfb, 0x01, 0xfd, 0x03, 0x05, 0xfe, 0x06,
  0xff, 0xfb, 0xfe, 0xfa, 0xfc, 0x08, 0xfd, 0x05, 0x00, 0xfe, 0xfe, 0xfe,
  0x01, 0x03, 0x00, 0x04, 0x00, 0xfd, 0x04, 0xfe, 0x0e, 0x00, 0x0a, 0x01,
  0x08, 0x00, 0x06, 0xff, 0x05, 0xfd, 0x05, 0x02, 0x03, 0xff, 0x02, 0xfd,
  0x02, 0x07, 0x01, 0x01, 0x00, 0xf9, 0x03, 0xff, 0xfe, 0x05, 0xe9, 0x01,
  0xce, 0xfe, 0xa0, 0xfd, 0x90, 0x03, 0xab, 0x01, 0xaf, 0x01, 0xb4, 0xff,
  0xaf, 0xfd, 0xa1, 0x01, 0xc8, 0x06, 0xc4, 0xfd, 0xd4, 0xfd, 0xf4, 0xfe,
  0x00, 0x03, 0xfe, 0x00, 0x01, 0xff, 0x02, 0xfe, 0x02, 0x01, 0x01, 0xff,
  0x01, 0x02, 0x01, 0x01, 0x01, 0xfa, 0x00, 0x05, 0xfe, 0x02, 0xfe, 0x00,
  0xfe, 0x01, 0xfe, 0x00, 0xfd, 0xfb, 0xfd, 0x02, 0xfa, 0x04, 0xfa, 0x00,
  0xfb, 0xfe, 0xf8, 0xfe, 0xf8, 0xff, 0xfa, 0xfd, 0xfb, 0xfc, 0xfa, 0x03,
  0xfb, 0x02, 0xfb, 0x01, 0xff, 0x02, 0xfe, 0x01, 0xfe, 0x02, 0xfd, 0x00,
  0x00, 0xff, 0xfe, 0x01, 0x01, 0x03, 0x02, 0x02, 0xfe, 0x01, 0xfc, 0x03,
  0xfd, 0x06, 0xfe, 0x04, 0xfc, 0xff, 0xf8, 0xf9, 0x03, 0xfa, 0x04, 0x00,
  0x03, 0x00, 0x02, 0x00, 0x02, 0xff, 0x01, 0x02, 0x02, 0x00, 0x02, 0xfe,
  0x01, 0xff, 0x01, 0x03, 0x01, 0x02, 0x02, 0x01, 0x01, 0xff, 0x04, 0x01,
  0x02, 0x01, 0x00, 0xff, 0x00, 0x01, 0xfd, 0xff, 0xff, 0x02, 0xcf, 0x02,
  0xb5, 0x03, 0x98, 0x03, 0x97, 0x02, 0xa0, 0x01, 0x8f, 0x02, 0xab, 0xff,
  0xb2, 0x00, 0x93, 0x00, 0xa7, 0xff, 0x8f, 0xf6, 0x02, 0xf8, 0xff, 0xff,
  0x04, 0x00, 0x00, 0x00, 0x50, 0x00, 0x00, 0x00, 0x38, 0x29, 0x2f, 0x3f,
  0x39, 0xb1, 0x88, 0xbe, 0xf4, 0x4d, 0xd8, 0x3c, 0x91, 0x3d, 0x13, 0x3d,
  0x6d, 0x8f, 0x75, 0x3e, 0x21, 0x75, 0xc2, 0x3e, 0xe4, 0xed, 0x68, 0xbe,
  0x72, 0x44, 0xd8, 0x3e, 0x85, 0xc2, 0x61, 0xbe, 0x82, 0x55, 0x3b, 0x3f,
  0x0b, 0xb3, 0xc0, 0x3e, 0x6b, 0xbc, 0xb8, 0xbe, 0xb6, 0xbc, 0xec, 0xbd,
  0xf0, 0x5a, 0x4a, 0x3d, 0x2a, 0x44, 0x10, 0x3f, 0x73, 0x50, 0x09, 0xbd,
  0x0c, 0x63, 0x85, 0x3e, 0x30, 0x97, 0xcd, 0x3d, 0xb1, 0xb2, 0x6f, 0x3e,
  0x66, 0x1c, 0x01, 0xbf, 0x5e, 0xf8, 0xff, 0xff, 0x04, 0x00, 0x00, 0x00,
  0x40, 0x00, 0x00, 0x00, 0x41, 0xd0, 0x39, 0xbf, 0x4f, 0x95, 0x84, 0x3f,
  0xda, 0xcc, 0x35, 0x3e, 0x7d, 0x81, 0x14, 0x3e, 0x80, 0x11, 0x06, 0xbf,
  0x9a, 0xaf, 0x23, 0xbe, 0x97, 0x53, 0xf0, 0x3e, 0x48, 0x6c, 0x72, 0x3d,
  0x4c, 0x1b, 0xb0, 0xbe, 0x96, 0x5f, 0xad, 0xbc, 0x1f, 0xbf, 0x1f, 0x3e,
  0x76, 0xb0, 0x3a, 0x3d, 0x02, 0x27, 0x92, 0xbf, 0x35, 0xa4, 0x90, 0x3e,
  0x70, 0xfc, 0x77, 0x3f, 0xc3, 0xad, 0x48, 0x3e, 0xaa, 0xf8, 0xff, 0xff,
  0x04, 0x00, 0x00, 0x00, 0x20, 0x00, 0x00, 0x00, 0x79, 0x38, 0xe5, 0x3c,
  0x62, 0xf5, 0xc7, 0x3e, 0x9c, 0x6a, 0x00, 0x3f, 0xa1, 0x2c, 0x44, 0x3f,
  0x89, 0x1f, 0xa0, 0x3e, 0x13, 0xf5, 0x81, 0x3d, 0x31, 0x80, 0x84, 0xbd,
  0xe2, 0x05, 0x14, 0x3f, 0xd6, 0xf8, 0xff, 0xff, 0x04, 0x00, 0x00, 0x00,
  0x04, 0x00, 0x00, 0x00, 0x65, 0xaf, 0x6e, 0xbe, 0xe6, 0xf8, 0xff, 0xff,
  0x04, 0x00, 0x00, 0x00, 0x00, 0x05, 0x00, 0x00, 0xae, 0x4c, 0xde, 0xbe,
  0x47, 0x98, 0xa7, 0x3e, 0x04, 0xf9, 0x71, 0xbe, 0x24, 0x57, 0x29, 0xbe,
  0xea, 0x86, 0xf3, 0x3e, 0xfe, 0xc2, 0x41, 0x3e, 0xcb, 0x60, 0x51, 0x3f,
  0x5b, 0x92, 0x03, 0xbe, 0xbe, 0x3d, 0x47, 0x3e, 0x00, 0xf3, 0x64, 0x3f,
  0xfe, 0xdb, 0x5c, 0xbd, 0x7c, 0x48, 0x1e, 0x3f, 0xe3, 0x6c, 0x9c, 0xbe,
  0xd0, 0x5b, 0x15, 0xbf, 0x41, 0xfe, 0xae, 0x3e, 0x14, 0xd2, 0xf2, 0x3e,
  0xd4, 0xa7, 0x80, 0x3e, 0xf2, 0x17, 0x60, 0x3e, 0x2f, 0xfc, 0x9d, 0xbe,
  0x61, 0x31, 0x33, 0x3f, 0xda, 0x95, 0x8c, 0xbe, 0x8b, 0xd4, 0x3b, 0xbe,
  0x8b, 0xd7, 0x04, 0x3d, 0xbf, 0x2a, 0xce, 0x3e, 0x3c, 0xee, 0x37, 0xbf,
  0x2e, 0x04, 0x21, 0x3c, 0x2b, 0x4a, 0xdb, 0x3e, 0x16, 0x99, 0xbb, 0x3d,
  0xbe, 0x5e, 0xf5, 0x3d, 0xbc, 0x06, 0x4b, 0xbf, 0xf0, 0x55, 0x28, 0x3e,
  0x09, 0x29, 0x21, 0x3e, 0x9a, 0x36, 0x3c, 0xbe, 0x90, 0x2f, 0x43, 0xbe,
  0x48, 0x9b, 0x9b, 0xbe, 0x76, 0xdf, 0xb2, 0xbf, 0x57, 0x9d, 0x1a, 0xbd,
  0x78, 0x87, 0x4a, 0xbf, 0x8b, 0xac, 0xbc, 0xbd, 0x1f, 0x6e, 0x5e, 0x3e,
  0x21, 0x05, 0x29, 0xbe, 0x0c, 0x63, 0xf2, 0xbd, 0x77, 0x68, 0x53, 0xbf,
  0x3b, 0x61, 0x2e, 0xbe, 0xcd, 0xac, 0xb7, 0xbc, 0x7a, 0xab, 0xf4, 0x3e,
  0xf2, 0xa0, 0x24, 0xbd, 0xa7, 0xf7, 0x94, 0x3e, 0x70, 0xf7, 0x08, 0x3f,
  0x85, 0x8c, 0x2f, 0xbe, 0x49, 0xeb, 0x1f, 0x3f, 0x44, 0x49, 0xc7, 0xbe,
  0xa0, 0x66, 0x1f, 0xbe, 0x31, 0x29, 0xe8, 0x3d, 0x43, 0x91, 0x1f, 0x3e,
  0x15, 0x3d, 0x67, 0x3f, 0xa6, 0x00, 0x85, 0x3e, 0xe5, 0x4f, 0x02, 0x3f,
  0x21, 0xd0, 0x70, 0x3e, 0xd1, 0x81, 0xd9, 0x3e, 0x51, 0x17, 0x11, 0x3f,
  0xb2, 0xfa, 0x91, 0x3e, 0x74, 0x2e, 0x84, 0xbe, 0xba, 0x62, 0x26, 0x3e,
  0xdb, 0x39, 0xc8, 0x3d, 0x29, 0x57, 0x17, 0xbe, 0xb2, 0x8a, 0xc0, 0xbe,
  0x1f, 0x52, 0xae, 0xbe, 0x10, 0x0b, 0x0b, 0x3f, 0x18, 0x9d, 0x08, 0x3f,
  0xbf, 0x50, 0x6c, 0x3c, 0x69, 0x40, 0x2d, 0xbf, 0xbc, 0xcc, 0x91, 0x3e,
  0x53, 0x5f, 0xd0, 0xbe, 0xcf, 0x62, 0x9c, 0xbe, 0x5d, 0x18, 0x0c, 0xbf,
  0xff, 0xfe, 0xa4, 0x3d, 0xb5, 0x0f, 0xd4, 0x3d, 0xf3, 0x24, 0x12, 0xbf,
  0x9d, 0x25, 0x4f, 0x3f, 0x67, 0xa3, 0xbb, 0xbe, 0x63, 0x70, 0x45, 0xbe,
  0x2e, 0x32, 0xcb, 0x3e, 0xb8, 0x88, 0x8d, 0x3e, 0x8d, 0x9d, 0x10, 0x3f,
  0x04, 0x27, 0xb8, 0xbd, 0x62, 0xe0, 0x5d, 0x3d, 0x86, 0x15, 0x8a, 0xbe,
  0xe2, 0xe5, 0x0c, 0x3f, 0xab, 0x51, 0x0c, 0x3e, 0x19, 0x33, 0xfa, 0xbe,
  0x81, 0x38, 0x60, 0x3b, 0x76, 0x7b, 0x0c, 0x3f, 0x7c, 0x2b, 0x79, 0xbc,
  0x28, 0x93, 0x18, 0xbe, 0xd8, 0x3d, 0xa8, 0xbf, 0xa2, 0x2b, 0x2a, 0x3e,
  0xb2, 0xe2, 0x5b, 0xbe, 0xc2, 0x33, 0x2c, 0xbf, 0x85, 0xe6, 0x3b, 0x3d,
  0x99, 0xa9, 0x80, 0xbe, 0x0a, 0xd4, 0x12, 0x3e, 0xd1, 0x9c, 0x00, 0xbe,
  0x9f, 0xad, 0xaa, 0xbe, 0x34, 0x16, 0x4e, 0xbd, 0x65, 0x63, 0x47, 0x3e,
  0x2e, 0x90, 0x4c, 0xbe, 0x0f, 0xad, 0x05, 0xbe, 0x8d, 0x11, 0xde, 0x3d,
  0xd8, 0x18, 0x82, 0x3d, 0x32, 0x11, 0x9e, 0xbe, 0xee, 0xf9, 0xa7, 0xbe,
  0x6f, 0xcf, 0xd3, 0xbe, 0x3b, 0xd9, 0xe3, 0xbe, 0xae, 0x26, 0x11, 0x3d,
  0x6b, 0x21, 0x77, 0xbe, 0xfa, 0xd1, 0xe9, 0xbe, 0x83, 0x8e, 0xbd, 0xbe,
  0x54, 0x64, 0xd8, 0x3d, 0x2e, 0xae, 0x93, 0xbe, 0xd7, 0xb9, 0xe8, 0x3d,
  0xba, 0xa6, 0x99, 0xbe, 0x3b, 0xcf, 0x35, 0xbc, 0xe1, 0x05, 0xd7, 0x3e,
  0xda, 0x02, 0x0e, 0x3d, 0x75, 0xa3, 0xa3, 0xbe, 0xe6, 0xa9, 0x7a, 0x3d,
  0xde, 0x46, 0x50, 0x3a, 0x95, 0x97, 0x8e, 0x3e, 0xee, 0x70, 0x30, 0xbf,
  0x80, 0xc1, 0xf2, 0x3d, 0xac, 0xf5, 0xae, 0x3e, 0xe7, 0x30, 0x65, 0x3e,
  0x04, 0x45, 0xd5, 0x3e, 0x8f, 0xda, 0xbe, 0xbe, 0x0c, 0x21, 0x26, 0xbf,
  0x67, 0x03, 0xc4, 0x3e, 0x8b, 0xc0, 0x0a, 0xbf, 0xe3, 0x6b, 0x1a, 0xbe,
  0x00, 0x33, 0x1c, 0xbf, 0x70, 0xb8, 0xa8, 0x3d, 0xb2, 0x95, 0xd0, 0x3d,
  0x0a, 0x7b, 0x83, 0x3e, 0x0b, 0x75, 0x01, 0x3f, 0xf8, 0x90, 0x5a, 0xbf,
  0x9f, 0xe8, 0x3c, 0x3d, 0x4f, 0x65, 0x1e, 0x3e, 0x03, 0x6d, 0x85, 0x3f,
  0x83, 0xfc, 0xb4, 0xbe, 0xec, 0x99, 0x22, 0x3f, 0x44, 0xa0, 0x36, 0xba,
  0xe2, 0xac, 0x2a, 0x3e, 0x9d, 0xab, 0x91, 0xbe, 0xfa, 0x15, 0x83, 0xbe,
  0xdb, 0x5f, 0x3f, 0x3e, 0x8a, 0x73, 0xa7, 0x3e, 0x15, 0x15, 0x27, 0xbe,
  0xf0, 0x0f, 0x95, 0x3e, 0x0b, 0x34, 0x9b, 0xbe, 0x3e, 0x49, 0xa7, 0x3e,
  0x8f, 0x13, 0x38, 0xbf, 0x78, 0x6e, 0xc3, 0xbc, 0xc2, 0xc0, 0x56, 0xbd,
  0xde, 0x18, 0x28, 0x3f, 0x5c, 0x57, 0x75, 0xbe, 0x27, 0xc0, 0x8d, 0x3d,
  0x9f, 0x72, 0xa8, 0xbd, 0xed, 0xb3, 0x14, 0xbf, 0x62, 0xa9, 0xfb, 0x3d,
  0x6a, 0xfc, 0xce, 0x3e, 0x94, 0x85, 0xff, 0x3e, 0x1d, 0xc3, 0x0d, 0xbd,
  0xb1, 0xb0, 0xa9, 0xbd, 0xee, 0x7c, 0x0a, 0x3e, 0xdf, 0xef, 0xa9, 0x3d,
  0xc4, 0xa3, 0xfb, 0x3e, 0x16, 0x98, 0x94, 0x3e, 0x7b, 0x32, 0x7c, 0x3f,
  0xd6, 0xe6, 0x22, 0xbe, 0x2f, 0xe1, 0x91, 0x3e, 0xb4, 0xa4, 0xf9, 0xbd,
  0x53, 0x1e, 0x15, 0x3e, 0x45, 0xef, 0x97, 0x3e, 0x93, 0x91, 0xe6, 0xbd,
  0x1b, 0xc5, 0x20, 0xbe, 0x57, 0x7a, 0xa4, 0xbc, 0x38, 0xd9, 0x37, 0x3e,
  0xec, 0xed, 0x25, 0x3e, 0x57, 0x96, 0xf0, 0x3e, 0x2e, 0xcd, 0x9a, 0x3d,
  0xf7, 0xe2, 0x41, 0x3f, 0x6e, 0x13, 0x29, 0xbd, 0x28, 0xd2, 0xb5, 0xbe,
  0xb1, 0xe2, 0x1c, 0xbe, 0x42, 0x11, 0xd6, 0x3e, 0x1c, 0xe0, 0x26, 0xbe,
  0x89, 0xaf, 0x8e, 0xbf, 0x66, 0xda, 0x88, 0xbe, 0xc1, 0x0e, 0xb3, 0xbd,
  0x11, 0xb4, 0x17, 0xbf, 0xd2, 0xfe, 0xc9, 0x3e, 0xd8, 0x1f, 0xb0, 0xbe,
  0x25, 0x2d, 0x05, 0x3e, 0x40, 0xcd, 0x81, 0x3e, 0x63, 0x76, 0xd6, 0x3d,
  0xa4, 0x55, 0x88, 0xbe, 0x90, 0xcc, 0x1f, 0xbe, 0x87, 0x32, 0x76, 0x3d,
  0x29, 0x31, 0x3d, 0xbf, 0xf6, 0x1b, 0x51, 0xbf, 0xc8, 0x63, 0x65, 0xbe,
  0x01, 0x12, 0xf7, 0x3e, 0x19, 0xba, 0x08, 0x3f, 0xec, 0x82, 0x50, 0x3f,
  0xb7, 0xf6, 0x55, 0xbe, 0x89, 0xd6, 0x06, 0xbf, 0xaf, 0xa5, 0xdf, 0xbe,
  0x9b, 0x3c, 0xe6, 0xbc, 0x47, 0x31, 0x7b, 0x3e, 0x20, 0x6a, 0x94, 0xbe,
  0xbf, 0x5f, 0x4f, 0xbd, 0x39, 0x0e, 0xf2, 0xbe, 0x27, 0x0b, 0xd8, 0x3e,
  0x1e, 0xe9, 0xf4, 0x3e, 0x06, 0x8e, 0xa3, 0xbd, 0x4c, 0x67, 0x1c, 0x3d,
  0x1d, 0xb7, 0xfb, 0x3d, 0x1e, 0xe0, 0x55, 0xbf, 0x06, 0x51, 0xac, 0xbe,
  0x56, 0xfc, 0x14, 0x3f, 0x66, 0xb5, 0x2b, 0xbe, 0xa1, 0x52, 0xa1, 0x3e,
  0xcd, 0x58, 0x85, 0xbb, 0x6e, 0x3a, 0x7b, 0xbe, 0xe9, 0x41, 0x0b, 0xbf,
  0x6b, 0x55, 0x59, 0x3e, 0xad, 0x40, 0xdc, 0x3d, 0x7c, 0x39, 0x0e, 0x3f,
  0x54, 0x6f, 0xf3, 0xbe, 0x73, 0xb3, 0x93, 0x3c, 0x44, 0x34, 0xa8, 0x3e,
  0x8e, 0x45, 0xdb, 0x3e, 0x51, 0xe6, 0xe8, 0x3d, 0xa8, 0x9f, 0x41, 0x3e,
  0x24, 0xbd, 0xf3, 0xbd, 0x94, 0x14, 0x5a, 0x3d, 0x7d, 0x67, 0x01, 0x3f,
  0x66, 0xcd, 0x07, 0xbe, 0xcb, 0x8e, 0x98, 0x3e, 0x0b, 0x65, 0xec, 0x3e,
  0xc8, 0x24, 0x59, 0xbb, 0xd8, 0x02, 0x92, 0x3e, 0x3a, 0xab, 0x19, 0x3d,
  0xc9, 0xce, 0x38, 0xbf, 0x40, 0x38, 0x6a, 0xbe, 0xd2, 0x62, 0x03, 0xbe,
  0x72, 0x4e, 0x53, 0x3e, 0x36, 0x92, 0x33, 0x3e, 0x84, 0x8e, 0xf8, 0xbe,
  0x32, 0x48, 0x99, 0x3e, 0x31, 0x43, 0x2f, 0x3f, 0x39, 0x6c, 0x21, 0xbf,
  0x41, 0xb3, 0x85, 0xbd, 0x28, 0x95, 0x6a, 0x3e, 0xc1, 0x24, 0x30, 0x3f,
  0x8c, 0x2c, 0x86, 0x3e, 0xe7, 0xfa, 0x45, 0xbe, 0x4e, 0x67, 0xa6, 0x3c,
  0xf4, 0x97, 0x03, 0xbd, 0xfe, 0x87, 0x19, 0xbf, 0x96, 0x96, 0x44, 0xbf,
  0x8b, 0x76, 0xcb, 0xbd, 0xb3, 0xdf, 0xd2, 0x3e, 0xa5, 0x94, 0xf7, 0x3e,
  0x87, 0x20, 0x84, 0xbd, 0xfd, 0x93, 0x22, 0xbe, 0xee, 0x9a, 0x1b, 0x3f,
  0x22, 0x0c, 0x22, 0xbf, 0x39, 0xa2, 0x5b, 0x3e, 0x32, 0x34, 0x32, 0xbf,
  0x5c, 0xd6, 0xc3, 0x3d, 0xdf, 0x44, 0xc9, 0xbd, 0x5c, 0xcf, 0x59, 0x3e,
  0xa4, 0x52, 0x62, 0xbe, 0x49, 0x1b, 0x27, 0x3e, 0xdc, 0x0e, 0x60, 0xbf,
  0xfb, 0x30, 0xa8, 0xbd, 0xf3, 0xac, 0x16, 0xbf, 0xaf, 0x55, 0x30, 0x3e,
  0x8c, 0x94, 0x54, 0x3e, 0xd7, 0xa2, 0xaa, 0xbe, 0x1b, 0xa5, 0xc1, 0xbc,
  0x49, 0xe8, 0x5a, 0x3e, 0x59, 0x16, 0x58, 0x3e, 0x0e, 0xd9, 0xfa, 0xbd,
  0xb0, 0x20, 0x84, 0x3e, 0xf7, 0x1b, 0xfe, 0xbe, 0xf9, 0x05, 0xd9, 0x3e,
  0x08, 0xee, 0x13, 0x3f, 0xb1, 0xcc, 0x13, 0xbf, 0x98, 0xb7, 0x8a, 0x3e,
  0xb1, 0x00, 0xd1, 0x3e, 0x7c, 0xa8, 0x30, 0xbe, 0x2f, 0x50, 0x13, 0xbf,
  0x17, 0xca, 0x59, 0x3e, 0x03, 0xaf, 0x0f, 0x3f, 0x77, 0x4c, 0x59, 0x3f,
  0x66, 0xdf, 0xb0, 0x3e, 0xea, 0x65, 0xdb, 0xbe, 0xe8, 0x4e, 0xee, 0xbb,
  0xbc, 0x25, 0xa1, 0x3e, 0x37, 0xa7, 0x0c, 0x3d, 0xf6, 0x34, 0xb0, 0x3e,
  0xa8, 0x06, 0xad, 0xbe, 0x33, 0xad, 0xa2, 0x3f, 0x86, 0xef, 0xaf, 0x3e,
  0x7a, 0x13, 0x28, 0x3e, 0xaf, 0x93, 0xfa, 0x3e, 0x46, 0x8c, 0xac, 0xba,
  0xfe, 0x34, 0x7c, 0xbd, 0xf2, 0xfd, 0xff, 0xff, 0x04, 0x00, 0x00, 0x00,
  0x00, 0x02, 0x00, 0x00, 0x6d, 0x40, 0x02, 0xbf, 0xb8, 0x0f, 0xfb, 0xbe,
  0xeb, 0xc9, 0x5b, 0x3e, 0x1e, 0x8a, 0x0a, 0xbf, 0x49, 0xac, 0x09, 0x3e,
  0x16, 0x81, 0x98, 0xbe, 0x96, 0xf4, 0xf4, 0x3d, 0x68, 0x82, 0x17, 0xbe,
  0xcc, 0x4d, 0xbf, 0xbb, 0x55, 0x8e, 0xa5, 0x3d, 0x18, 0x8d, 0x28, 0x3f,
  0xea, 0x86, 0x1e, 0xbf, 0x1c, 0x0a, 0x7d, 0xbe, 0x1e, 0x26, 0x45, 0x3f,
  0xeb, 0xa3, 0x2d, 0x3f, 0xd3, 0x38, 0xfe, 0x3e, 0xcf, 0x29, 0x1a, 0x3e,
  0xe7, 0x04, 0x0a, 0x3f, 0x3c, 0x20, 0xb4, 0x3d, 0x8f, 0xf9, 0xf7, 0x3e,
  0x8c, 0xe9, 0xe7, 0xbf, 0xe4, 0x45, 0x9f, 0x3e, 0xc7, 0x81, 0xce, 0xbd,
  0xd3, 0x85, 0x45, 0x3f, 0xac, 0xc5, 0x44, 0x3e, 0x2f, 0x81, 0x8a, 0x3e,
  0xff, 0x44, 0xb8, 0xbe, 0x5d, 0xd6, 0x56, 0xbf, 0xfe, 0x61, 0x09, 0xbf,
  0x2c, 0xff, 0x29, 0x3e, 0xb2, 0x0a, 0x32, 0x3f, 0x3a, 0x53, 0xab, 0x3e,
  0x2e, 0xd0, 0xfa, 0xbe, 0xfe, 0x7c, 0x0c, 0x3e, 0xb0, 0xb5, 0xe8, 0x3e,
  0x59, 0x5d, 0x39, 0x3e, 0x93, 0x72, 0xe4, 0xbe, 0xb9, 0x34, 0x95, 0x3e,
  0x11, 0x12, 0x0c, 0xbf, 0x12, 0x4f, 0xb6, 0xbe, 0xfa, 0xfe, 0x0e, 0xbd,
  0xb4, 0xd4, 0x28, 0x3f, 0xc5, 0x7f, 0x9f, 0x3e, 0xe3, 0x74, 0x91, 0xbe,
  0xac, 0x83, 0x0f, 0x3f, 0xce, 0x33, 0x0b, 0xbf, 0x64, 0x09, 0x91, 0x3f,
  0x89, 0x6b, 0xe9, 0xbc, 0xed, 0xff, 0xd1, 0xbe, 0xba, 0xc8, 0x5b, 0xbe,
  0x7f, 0xd3, 0x8f, 0xbf, 0xb7, 0x46, 0xa9, 0xbe, 0xeb, 0x1b, 0xc2, 0x3e,
  0xbc, 0x84, 0x96, 0x3e, 0x32, 0xa3, 0x16, 0x3f, 0xac, 0x30, 0xad, 0x3d,
  0x68, 0x2f, 0x95, 0x3e, 0x00, 0xeb, 0x56, 0xbf, 0xed, 0x4c, 0x7f, 0xbe,
  0xe9, 0xf2, 0x98, 0x3e, 0x6a, 0xc9, 0xa6, 0xbe, 0x78, 0x9e, 0x14, 0x3f,
  0xfe, 0x9d, 0xa4, 0x3e, 0x40, 0xe3, 0x5c, 0xbf, 0x56, 0xb7, 0xd5, 0xbe,
  0x16, 0x92, 0x3a, 0x3e, 0x65, 0xbc, 0x10, 0xbf, 0x31, 0x97, 0xc4, 0xbe,
  0x78, 0x38, 0x9f, 0x3e, 0xe0, 0x98, 0xaf, 0x3d, 0x60, 0x12, 0x49, 0x3e,
  0xab, 0x9c, 0x16, 0xbe, 0x06, 0x4f, 0x17, 0xbf, 0xdd, 0xb3, 0x61, 0xbe,
  0x27, 0x27, 0x16, 0x3f, 0xed, 0xbe, 0xec, 0xbd, 0x42, 0x2a, 0xe9, 0xbd,
  0x83, 0xd0, 0x03, 0x3f, 0x36, 0xb2, 0x18, 0x3f, 0xdb, 0x52, 0xd2, 0x3d,
  0x19, 0x79, 0xb9, 0xbe, 0xc4, 0x8c, 0x91, 0x3d, 0x53, 0xac, 0x5b, 0xbe,
  0x26, 0xb3, 0x9e, 0xbc, 0x20, 0x08, 0x94, 0xbe, 0xd5, 0x00, 0x70, 0xbe,
  0x48, 0xbb, 0xc6, 0x3e, 0x90, 0xc9, 0x95, 0xbe, 0x48, 0x20, 0x99, 0x3e,
  0xde, 0xd7, 0x79, 0xbe, 0x69, 0xd6, 0xa5, 0xbe, 0x0d, 0xe1, 0xd7, 0xbe,
  0xd9, 0x42, 0x01, 0xbf, 0x37, 0xc1, 0x05, 0xbf, 0x77, 0xe7, 0x83, 0x3e,
  0x5e, 0xaa, 0x52, 0xbf, 0xa6, 0x7a, 0x5d, 0x3f, 0x01, 0xfc, 0x9f, 0x3d,
  0xf3, 0x9b, 0xda, 0x3e, 0x3a, 0x35, 0xc1, 0x3e, 0xea, 0xa7, 0xff, 0x3e,
  0x6b, 0x4f, 0xc3, 0x3d, 0x70, 0x8a, 0x18, 0xbd, 0x33, 0xf0, 0x29, 0x3f,
  0x6a, 0x84, 0xe9, 0x3e, 0x19, 0x19, 0x2b, 0x3e, 0x0b, 0xa8, 0x68, 0xbe,
  0xd4, 0xba, 0xe1, 0x3c, 0x96, 0x45, 0xd9, 0x3e, 0x14, 0x35, 0x92, 0x3d,
  0x0a, 0xe2, 0x0e, 0xbe, 0x26, 0x7c, 0x90, 0xbd, 0x9c, 0xe5, 0x3e, 0xbe,
  0x18, 0x13, 0xe4, 0x3e, 0x64, 0x41, 0x32, 0x3e, 0x60, 0x30, 0x51, 0xbd,
  0x7d, 0x21, 0x6d, 0xbd, 0xf4, 0x2c, 0xb2, 0x3e, 0xfc, 0x91, 0xbc, 0x3e,
  0xb6, 0xdd, 0x53, 0xbb, 0x05, 0x62, 0x41, 0x3d, 0xd7, 0x66, 0x09, 0xbf,
  0x14, 0x9c, 0xb3, 0x3d, 0xf8, 0xb7, 0x1f, 0xbf, 0xb5, 0xc0, 0x0d, 0xbf,
  0x65, 0x6d, 0x69, 0x3e, 0xef, 0x73, 0xa3, 0x3e, 0x62, 0x91, 0x3f, 0xbe,
  0x00, 0x00, 0x06, 0x00, 0x08, 0x00, 0x04, 0x00, 0x06, 0x00, 0x00, 0x00,
  0x04, 0x00, 0x00, 0x00, 0x20, 0x00, 0x00, 0x00, 0x85, 0x32, 0x2f, 0x3f,
  0x85, 0xb1, 0x23, 0x3f, 0x63, 0x40, 0xb6, 0x3e, 0x4f, 0xfe, 0x2a, 0xbf,
  0xba, 0x49, 0x0f, 0xbf, 0x70, 0x86, 0x5b, 0xbf, 0xe1, 0xed, 0x3a, 0x3f,
  0x1b, 0x09, 0x05, 0xbf, 0x70, 0xf8, 0xff, 0xff, 0x74, 0xf8, 0xff, 0xff,
  0x0f, 0x00, 0x00, 0x00, 0x4d, 0x4c, 0x49, 0x52, 0x20, 0x43, 0x6f, 0x6e,
  0x76, 0x65, 0x72, 0x74, 0x65, 0x64, 0x2e, 0x00, 0x01, 0x00, 0x00, 0x00,
  0x14, 0x00, 0x00, 0x00, 0x00, 0x00, 0x0e, 0x00, 0x18, 0x00, 0x14, 0x00,
  0x10, 0x00, 0x0c, 0x00, 0x08, 0x00, 0x04, 0x00, 0x0e, 0x00, 0x00, 0x00,
  0x14, 0x00, 0x00, 0x00, 0x1c, 0x00, 0x00, 0x00, 0x4c, 0x01, 0x00, 0x00,
  0x50, 0x01, 0x00, 0x00, 0x54, 0x01, 0x00, 0x00, 0x04, 0x00, 0x00, 0x00,
  0x6d, 0x61, 0x69, 0x6e, 0x00, 0x00, 0x00, 0x00, 0x05, 0x00, 0x00, 0x00,
  0xf0, 0x00, 0x00, 0x00, 0xa0, 0x00, 0x00, 0x00, 0x68, 0x00, 0x00, 0x00,
  0x34, 0x00, 0x00, 0x00, 0x10, 0x00, 0x00, 0x00, 0x00, 0x00, 0x0a, 0x00,
  0x10, 0x00, 0x0c, 0x00, 0x08, 0x00, 0x04, 0x00, 0x0a, 0x00, 0x00, 0x00,
  0x0c, 0x00, 0x00, 0x00, 0x10, 0x00, 0x00, 0x00, 0x01, 0x00, 0x00, 0x00,
  0x01, 0x00, 0x00, 0x00, 0x0d, 0x00, 0x00, 0x00, 0x01, 0x00, 0x00, 0x00,
  0x0c, 0x00, 0x00, 0x00, 0x5e, 0xff, 0xff, 0xff, 0x10, 0x00, 0x00, 0x00,
  0x00, 0x00, 0x00, 0x08, 0x0c, 0x00, 0x00, 0x00, 0x10, 0x00, 0x00, 0x00,
  0x20, 0xf9, 0xff, 0xff, 0x01, 0x00, 0x00, 0x00, 0x0c, 0x00, 0x00, 0x00,
  0x03, 0x00, 0x00, 0x00, 0x0b, 0x00, 0x00, 0x00, 0x01, 0x00, 0x00, 0x00,
  0x04, 0x00, 0x00, 0x00, 0x8e, 0xff, 0xff, 0xff, 0x10, 0x00, 0x00, 0x00,
  0x00, 0x00, 0x00, 0x08, 0x10, 0x00, 0x00, 0x00, 0x14, 0x00, 0x00, 0x00,
  0xca, 0xff, 0xff, 0xff, 0x00, 0x00, 0x00, 0x01, 0x01, 0x00, 0x00, 0x00,
  0x0b, 0x00, 0x00, 0x00, 0x03, 0x00, 0x00, 0x00, 0x0a, 0x00, 0x00, 0x00,
  0x02, 0x00, 0x00, 0x00, 0x05, 0x00, 0x00, 0x00, 0xc2, 0xff, 0xff, 0xff,
  0x18, 0x00, 0x00, 0x00, 0x00, 0x00, 0x00, 0x08, 0x18, 0x00, 0x00, 0x00,
  0x1c, 0x00, 0x00, 0x00, 0x00, 0x00, 0x06, 0x00, 0x08, 0x00, 0x07, 0x00,
  0x06, 0x00, 0x00, 0x00, 0x00, 0x00, 0x00, 0x01, 0x01, 0x00, 0x00, 0x00,
  0x0a, 0x00, 0x00, 0x00, 0x03, 0x00, 0x00, 0x00, 0x09, 0x00, 0x00, 0x00,
  0x03, 0x00, 0x00, 0x00, 0x06, 0x00, 0x00, 0x00, 0x00, 0x00, 0x0e, 0x00,
  0x14, 0x00, 0x00, 0x00, 0x10, 0x00, 0x0c, 0x00, 0x0b, 0x00, 0x04, 0x00,
  0x0e, 0x00, 0x00, 0x00, 0x1c, 0x00, 0x00, 0x00, 0x00, 0x00, 0x00, 0x08,
  0x1c, 0x00, 0x00, 0x00, 0x20, 0x00, 0x00, 0x00, 0x0c, 0x00, 0x08, 0x00,
  0x07, 0x00, 0x00, 0x00, 0x00, 0x00, 0x06, 0x00, 0x0c, 0x00, 0x00, 0x00,
  0x00, 0x00, 0x01, 0x01, 0x01, 0x00, 0x00, 0x00, 0x09, 0x00, 0x00, 0x00,
  0x03, 0x00, 0x00, 0x00, 0x00, 0x00, 0x00, 0x00, 0x08, 0x00, 0x00, 0x00,
  0x07, 0x00, 0x00, 0x00, 0x01, 0x00, 0x00, 0x00, 0x0d, 0x00, 0x00, 0x00,
  0x01, 0x00, 0x00, 0x00, 0x00, 0x00, 0x00, 0x00, 0x0e, 0x00, 0x00, 0x00,
  0xc8, 0x05, 0x00, 0x00, 0x60, 0x05, 0x00, 0x00, 0xf8, 0x04, 0x00, 0x00,
  0xa8, 0x04, 0x00, 0x00, 0x4c, 0x04, 0x00, 0x00, 0xf0, 0x03, 0x00, 0x00,
  0x94, 0x03, 0x00, 0x00, 0x38, 0x03, 0x00, 0x00, 0xbc, 0x02, 0x00, 0x00,
  0x0c, 0x02, 0x00, 0x00, 0x74, 0x01, 0x00, 0x00, 0xdc, 0x00, 0x00, 0x00,
  0x60, 0x00, 0x00, 0x00, 0x04, 0x00, 0x00, 0x00, 0x86, 0xfa, 0xff, 0xff,
  0x00, 0x00, 0x00, 0x01, 0x14, 0x00, 0x00, 0x00, 0x1c, 0x00, 0x00, 0x00,
  0x1c, 0x00, 0x00, 0x00, 0x0e, 0x00, 0x00, 0x00, 0x34, 0x00, 0x00, 0x00,
  0x02, 0x00, 0x00, 0x00, 0xff, 0xff, 0xff, 0xff, 0x01, 0x00, 0x00, 0x00,
  0x70, 0xfa, 0xff, 0xff, 0x19, 0x00, 0x00, 0x00, 0x53, 0x74, 0x61, 0x74,
  0x65, 0x66, 0x75, 0x6c, 0x50, 0x61, 0x72, 0x74, 0x69, 0x74, 0x69, 0x6f,
  0x6e, 0x65, 0x64, 0x43, 0x61, 0x6c, 0x6c, 0x3a, 0x30, 0x00, 0x00, 0x00,
  0x02, 0x00, 0x00, 0x00, 0x01, 0x00, 0x00, 0x00, 0x01, 0x00, 0x00, 0x00,
  0xde, 0xfa, 0xff, 0xff, 0x00, 0x00, 0x00, 0x01, 0x14, 0x00, 0x00, 0x00,
  0x1c, 0x00, 0x00, 0x00, 0x1c, 0x00, 0x00, 0x00, 0x0d, 0x00, 0x00, 0x00,
  0x54, 0x00, 0x00, 0x00, 0x02, 0x00, 0x00, 0x00, 0xff, 0xff, 0xff, 0xff,
  0x01, 0x00, 0x00, 0x00, 0xc8, 0xfa, 0xff, 0xff, 0x3a, 0x00, 0x00, 0x00,
  0x73, 0x65, 0x71, 0x75, 0x65, 0x6e, 0x74, 0x69, 0x61, 0x6c, 0x5f, 0x38,
  0x2f, 0x64, 0x65, 0x6e, 0x73, 0x65, 0x5f, 0x33, 0x35, 0x2f, 0x4d, 0x61,
  0x74, 0x4d, 0x75, 0x6c, 0x3b, 0x73, 0x65, 0x71, 0x75, 0x65, 0x6e, 0x74,
  0x69, 0x61, 0x6c, 0x5f, 0x38, 0x2f, 0x64, 0x65, 0x6e, 0x73, 0x65, 0x5f,
  0x33, 0x35, 0x2f, 0x42, 0x69, 0x61, 0x73, 0x41, 0x64, 0x64, 0x00, 0x00,
  0x02, 0x00, 0x00, 0x00, 0x01, 0x00, 0x00, 0x00, 0x01, 0x00, 0x00, 0x00,
  0x56, 0xfb, 0xff, 0xff, 0x00, 0x00, 0x00, 0x01, 0x14, 0x00, 0x00, 0x00,
  0x1c, 0x00, 0x00, 0x00, 0x1c, 0x00, 0x00, 0x00, 0x0c, 0x00, 0x00, 0x00,
  0x70, 0x00, 0x00, 0x00, 0x02, 0x00, 0x00, 0x00, 0xff, 0xff, 0xff, 0xff,
  0x08, 0x00, 0x00, 0x00, 0x40, 0xfb, 0xff, 0xff, 0x55, 0x00, 0x00, 0x00,
  0x73, 0x65, 0x71, 0x75, 0x65, 0x6e, 0x74, 0x69, 0x61, 0x6c, 0x5f, 0x38,
  0x2f, 0x64, 0x65, 0x6e, 0x73, 0x65, 0x5f, 0x33, 0x34, 0x2f, 0x4d, 0x61,
  0x74, 0x4d, 0x75, 0x6c, 0x3b, 0x73, 0x65, 0x71, 0x75, 0x65, 0x6e, 0x74,
  0x69, 0x61, 0x6c, 0x5f, 0x38, 0x2f, 0x64, 0x65, 0x6e, 0x73, 0x65, 0x5f,
  0x33, 0x34, 0x2f, 0x52, 0x65, 0x6c, 0x75, 0x3b, 0x73, 0x65, 0x71, 0x75,
  0x65, 0x6e, 0x74, 0x69, 0x61, 0x6c, 0x5f, 0x38, 0x2f, 0x64, 0x65, 0x6e,
  0x73, 0x65, 0x5f, 0x33, 0x34, 0x2f, 0x42, 0x69, 0x61, 0x73, 0x41, 0x64,
  0x64, 0x00, 0x00, 0x00, 0x02, 0x00, 0x00, 0x00, 0x01, 0x00, 0x00, 0x00,
  0x08, 0x00, 0x00, 0x00, 0xea, 0xfb, 0xff, 0xff, 0x00, 0x00, 0x00, 0x01,
  0x14, 0x00, 0x00, 0x00, 0x1c, 0x00, 0x00, 0x00, 0x1c, 0x00, 0x00, 0x00,
  0x0b, 0x00, 0x00, 0x00, 0x70, 0x00, 0x00, 0x00, 0x02, 0x00, 0x00, 0x00,
  0xff, 0xff, 0xff, 0xff, 0x10, 0x00, 0x00, 0x00, 0xd4, 0xfb, 0xff, 0xff,
  0x55, 0x00, 0x00, 0x00, 0x73, 0x65, 0x71, 0x75, 0x65, 0x6e, 0x74, 0x69,
  0x61, 0x6c, 0x5f, 0x38, 0x2f, 0x64, 0x65, 0x6e, 0x73, 0x65, 0x5f, 0x33,
  0x33, 0x2f, 0x4d, 0x61, 0x74, 0x4d, 0x75, 0x6c, 0x3b, 0x73, 0x65, 0x71,
  0x75, 0x65, 0x6e, 0x74, 0x69, 0x61, 0x6c, 0x5f, 0x38, 0x2f, 0x64, 0x65,
  0x6e, 0x73, 0x65, 0x5f, 0x33, 0x33, 0x2f, 0x52, 0x65, 0x6c, 0x75, 0x3b,
  0x73, 0x65, 0x71, 0x75, 0x65, 0x6e, 0x74, 0x69, 0x61, 0x6c, 0x5f, 0x38,
  0x2f, 0x64, 0x65, 0x6e, 0x73, 0x65, 0x5f, 0x33, 0x33, 0x2f, 0x42, 0x69,
  0x61, 0x73, 0x41, 0x64, 0x64, 0x00, 0x00, 0x00, 0x02, 0x00, 0x00, 0x00,
  0x01, 0x00, 0x00, 0x00, 0x10, 0x00, 0x00, 0x00, 0x7e, 0xfc, 0xff, 0xff,
  0x00, 0x00, 0x00, 0x01, 0x14, 0x00, 0x00, 0x00, 0x1c, 0x00, 0x00, 0x00,
  0x1c, 0x00, 0x00, 0x00, 0x0a, 0x00, 0x00, 0x00, 0x70, 0x00, 0x00, 0x00,
  0x02, 0x00, 0x00, 0x00, 0xff, 0xff, 0xff, 0xff, 0x14, 0x00, 0x00, 0x00,
  0x68, 0xfc, 0xff, 0xff, 0x55, 0x00, 0x00, 0x00, 0x73, 0x65, 0x71, 0x75,
  0x65, 0x6e, 0x74, 0x69, 0x61, 0x6c, 0x5f, 0x38, 0x2f, 0x64, 0x65, 0x6e,
  0x73, 0x65, 0x5f, 0x33, 0x32, 0x2f, 0x4d, 0x61, 0x74, 0x4d, 0x75, 0x6c,
  0x3b, 0x73, 0x65, 0x71, 0x75, 0x65, 0x6e, 0x74, 0x69, 0x61, 0x6c, 0x5f,
  0x38, 0x2f, 0x64, 0x65, 0x6e, 0x73, 0x65, 0x5f, 0x33, 0x32, 0x2f, 0x52,
  0x65, 0x6c, 0x75, 0x3b, 0x73, 0x65, 0x71, 0x75, 0x65, 0x6e, 0x74, 0x69,
  0x61, 0x6c, 0x5f, 0x38, 0x2f, 0x64, 0x65, 0x6e, 0x73, 0x65, 0x5f, 0x33,
  0x32, 0x2f, 0x42, 0x69, 0x61, 0x73, 0x41, 0x64, 0x64, 0x00, 0x00, 0x00,
  0x02, 0x00, 0x00, 0x00, 0x01, 0x00, 0x00, 0x00, 0x14, 0x00, 0x00, 0x00,
  0x00, 0x00, 0x16, 0x00, 0x1c, 0x00, 0x18, 0x00, 0x17, 0x00, 0x10, 0x00,
  0x0c, 0x00, 0x08, 0x00, 0x00, 0x00, 0x00, 0x00, 0x00, 0x00, 0x07, 0x00,
  0x16, 0x00, 0x00, 0x00, 0x00, 0x00, 0x00, 0x01, 0x20, 0x00, 0x00, 0x00,
  0x3c, 0x00, 0x00, 0x00, 0x09, 0x00, 0x00, 0x00, 0x00, 0x00, 0x00, 0x09,
  0x54, 0x00, 0x00, 0x00, 0x0c, 0x00, 0x0c, 0x00, 0x00, 0x00, 0x00, 0x00,
  0x08, 0x00, 0x04, 0x00, 0x0c, 0x00, 0x00, 0x00, 0x08, 0x00, 0x00, 0x00,
  0x10, 0x00, 0x00, 0x00, 0x01, 0x00, 0x00, 0x00, 0x00, 0x00, 0x00, 0x00,
  0x00, 0x00, 0x00, 0x00, 0x01, 0x00, 0x00, 0x00, 0xbe, 0xbd, 0xd7, 0x3d,
  0x1c, 0x00, 0x00, 0x00, 0x73, 0x65, 0x71, 0x75, 0x65, 0x6e, 0x74, 0x69,
  0x61, 0x6c, 0x5f, 0x38, 0x2f, 0x64, 0x65, 0x6e, 0x73, 0x65, 0x5f, 0x33,
  0x32, 0x2f, 0x4d, 0x61, 0x74, 0x4d, 0x75, 0x6c, 0x00, 0x00, 0x00, 0x00,
  0x02, 0x00, 0x00, 0x00, 0x14, 0x00, 0x00, 0x00, 0x3c, 0x00, 0x00, 0x00,
  0x06, 0xfe, 0xff, 0xff, 0x00, 0x00, 0x00, 0x01, 0x10, 0x00, 0x00, 0x00,
  0x10, 0x00, 0x00, 0x00, 0x08, 0x00, 0x00, 0x00, 0x3c, 0x00, 0x00, 0x00,
  0x7c, 0xfd, 0xff, 0xff, 0x2c, 0x00, 0x00, 0x00, 0x73, 0x65, 0x71, 0x75,
  0x65, 0x6e, 0x74, 0x69, 0x61, 0x6c, 0x5f, 0x38, 0x2f, 0x64, 0x65, 0x6e,
  0x73, 0x65, 0x5f, 0x33, 0x32, 0x2f, 0x42, 0x69, 0x61, 0x73, 0x41, 0x64,
  0x64, 0x2f, 0x52, 0x65, 0x61, 0x64, 0x56, 0x61, 0x72, 0x69, 0x61, 0x62,
  0x6c, 0x65, 0x4f, 0x70, 0x00, 0x00, 0x00, 0x00, 0x01, 0x00, 0x00, 0x00,
  0x14, 0x00, 0x00, 0x00, 0x5e, 0xfe, 0xff, 0xff, 0x00, 0x00, 0x00, 0x01,
  0x10, 0x00, 0x00, 0x00, 0x10, 0x00, 0x00, 0x00, 0x07, 0x00, 0x00, 0x00,
  0x3c, 0x00, 0x00, 0x00, 0xd4, 0xfd, 0xff, 0xff, 0x2c, 0x00, 0x00, 0x00,
  0x73, 0x65, 0x71, 0x75, 0x65, 0x6e, 0x74, 0x69, 0x61, 0x6c, 0x5f, 0x38,
  0x2f, 0x64, 0x65, 0x6e, 0x73, 0x65, 0x5f, 0x33, 0x33, 0x2f, 0x42, 0x69,
  0x61, 0x73, 0x41, 0x64, 0x64, 0x2f, 0x52, 0x65, 0x61, 0x64, 0x56, 0x61,
  0x72, 0x69, 0x61, 0x62, 0x6c, 0x65, 0x4f, 0x70, 0x00, 0x00, 0x00, 0x00,
  0x01, 0x00, 0x00, 0x00, 0x10, 0x00, 0x00, 0x00, 0xb6, 0xfe, 0xff, 0xff,
  0x00, 0x00, 0x00, 0x01, 0x10, 0x00, 0x00, 0x00, 0x10, 0x00, 0x00, 0x00,
  0x06, 0x00, 0x00, 0x00, 0x3c, 0x00, 0x00, 0x00, 0x2c, 0xfe, 0xff, 0xff,
  0x2c, 0x00, 0x00, 0x00, 0x73, 0x65, 0x71, 0x75, 0x65, 0x6e, 0x74, 0x69,
  0x61, 0x6c, 0x5f, 0x38, 0x2f, 0x64, 0x65, 0x6e, 0x73, 0x65, 0x5f, 0x33,
  0x34, 0x2f, 0x42, 0x69, 0x61, 0x73, 0x41, 0x64, 0x64, 0x2f, 0x52, 0x65,
  0x61, 0x64, 0x56, 0x61, 0x72, 0x69, 0x61, 0x62, 0x6c, 0x65, 0x4f, 0x70,
  0x00, 0x00, 0x00, 0x00, 0x01, 0x00, 0x00, 0x00, 0x08, 0x00, 0x00, 0x00,
  0x0e, 0xff, 0xff, 0xff, 0x00, 0x00, 0x00, 0x01, 0x10, 0x00, 0x00, 0x00,
  0x10, 0x00, 0x00, 0x00, 0x05, 0x00, 0x00, 0x00, 0x3c, 0x00, 0x00, 0x00,
  0x84, 0xfe, 0xff, 0xff, 0x2c, 0x00, 0x00, 0x00, 0x73, 0x65, 0x71, 0x75,
  0x65, 0x6e, 0x74, 0x69, 0x61, 0x6c, 0x5f, 0x38, 0x2f, 0x64, 0x65, 0x6e,
  0x73, 0x65, 0x5f, 0x33, 0x35, 0x2f, 0x42, 0x69, 0x61, 0x73, 0x41, 0x64,
  0x64, 0x2f, 0x52, 0x65, 0x61, 0x64, 0x56, 0x61, 0x72, 0x69, 0x61, 0x62,
  0x6c, 0x65, 0x4f, 0x70, 0x00, 0x00, 0x00, 0x00, 0x01, 0x00, 0x00, 0x00,
  0x01, 0x00, 0x00, 0x00, 0x66, 0xff, 0xff, 0xff, 0x00, 0x00, 0x00, 0x01,
  0x10, 0x00, 0x00, 0x00, 0x10, 0x00, 0x00, 0x00, 0x04, 0x00, 0x00, 0x00,
  0x2c, 0x00, 0x00, 0x00, 0xdc, 0xfe, 0xff, 0xff, 0x1c, 0x00, 0x00, 0x00,
  0x73, 0x65, 0x71, 0x75, 0x65, 0x6e, 0x74, 0x69, 0x61, 0x6c, 0x5f, 0x38,
  0x2f, 0x64, 0x65, 0x6e, 0x73, 0x65, 0x5f, 0x33, 0x33, 0x2f, 0x4d, 0x61,
  0x74, 0x4d, 0x75, 0x6c, 0x00, 0x00, 0x00, 0x00, 0x02, 0x00, 0x00, 0x00,
  0x10, 0x00, 0x00, 0x00, 0x14, 0x00, 0x00, 0x00, 0xb2, 0xff, 0xff, 0xff,
  0x00, 0x00, 0x00, 0x01, 0x10, 0x00, 0x00, 0x00, 0x10, 0x00, 0x00, 0x00,
  0x03, 0x00, 0x00, 0x00, 0x2c, 0x00, 0x00, 0x00, 0x28, 0xff, 0xff, 0xff,
  0x1c, 0x00, 0x00, 0x00, 0x73, 0x65, 0x71, 0x75, 0x65, 0x6e, 0x74, 0x69,
  0x61, 0x6c, 0x5f, 0x38, 0x2f, 0x64, 0x65, 0x6e, 0x73, 0x65, 0x5f, 0x33,
  0x34, 0x2f, 0x4d, 0x61, 0x74, 0x4d, 0x75, 0x6c, 0x00, 0x00, 0x00, 0x00,
  0x02, 0x00, 0x00, 0x00, 0x08, 0x00, 0x00, 0x00, 0x10, 0x00, 0x00, 0x00,
  0x00, 0x00, 0x16, 0x00, 0x18, 0x00, 0x14, 0x00, 0x00, 0x00, 0x10, 0x00,
  0x0c, 0x00, 0x08, 0x00, 0x00, 0x00, 0x00, 0x00, 0x00, 0x00, 0x07, 0x00,
  0x16, 0x00, 0x00, 0x00, 0x00, 0x00, 0x00, 0x01, 0x10, 0x00, 0x00, 0x00,
  0x10, 0x00, 0x00, 0x00, 0x02, 0x00, 0x00, 0x00, 0x2c, 0x00, 0x00, 0x00,
  0x8c, 0xff, 0xff, 0xff, 0x1c, 0x00, 0x00, 0x00, 0x73, 0x65, 0x71, 0x75,
  0x65, 0x6e, 0x74, 0x69, 0x61, 0x6c, 0x5f, 0x38, 0x2f, 0x64, 0x65, 0x6e,
  0x73, 0x65, 0x5f, 0x33, 0x35, 0x2f, 0x4d, 0x61, 0x74, 0x4d, 0x75, 0x6c,
  0x00, 0x00, 0x00, 0x00, 0x02, 0x00, 0x00, 0x00, 0x01, 0x00, 0x00, 0x00,
  0x08, 0x00, 0x00, 0x00, 0x00, 0x00, 0x16, 0x00, 0x1c, 0x00, 0x18, 0x00,
  0x00, 0x00, 0x14, 0x00, 0x10, 0x00, 0x0c, 0x00, 0x00, 0x00, 0x00, 0x00,
  0x08, 0x00, 0x07, 0x00, 0x16, 0x00, 0x00, 0x00, 0x00, 0x00, 0x00, 0x01,
  0x14, 0x00, 0x00, 0x00, 0x20, 0x00, 0x00, 0x00, 0x20, 0x00, 0x00, 0x00,
  0x01, 0x00, 0x00, 0x00, 0x40, 0x00, 0x00, 0x00, 0x02, 0x00, 0x00, 0x00,
  0xff, 0xff, 0xff, 0xff, 0x3c, 0x00, 0x00, 0x00, 0x04, 0x00, 0x04, 0x00,
  0x04, 0x00, 0x00, 0x00, 0x20, 0x00, 0x00, 0x00, 0x73, 0x65, 0x72, 0x76,
  0x69, 0x6e, 0x67, 0x5f, 0x64, 0x65, 0x66, 0x61, 0x75, 0x6c, 0x74, 0x5f,
  0x64, 0x65, 0x6e, 0x73, 0x65, 0x5f, 0x33, 0x32, 0x5f, 0x69, 0x6e, 0x70,
  0x75, 0x74, 0x3a, 0x30, 0x00, 0x00, 0x00, 0x00, 0x02, 0x00, 0x00, 0x00,
  0x01, 0x00, 0x00, 0x00, 0x3c, 0x00, 0x00, 0x00, 0x02, 0x00, 0x00, 0x00,
  0x2c, 0x00, 0x00, 0x00, 0x10, 0x00, 0x00, 0x00, 0x0c, 0x00, 0x0c, 0x00,
  0x0b, 0x00, 0x00, 0x00, 0x00, 0x00, 0x04, 0x00, 0x0c, 0x00, 0x00, 0x00,
  0x0e, 0x00, 0x00, 0x00, 0x00, 0x00, 0x00, 0x0e, 0x0c, 0x00, 0x10, 0x00,
  0x0f, 0x00, 0x00, 0x00, 0x08, 0x00, 0x04, 0x00, 0x0c, 0x00, 0x00, 0x00,
  0x09, 0x00, 0x00, 0x00, 0x09, 0x00, 0x00, 0x00, 0x00, 0x00, 0x00, 0x09
 
};

#endif //SLEEPDETEC_H